
00111110001110011101010100101100
10111110000001100000011100010001
10111110001001001010111001100101
10111110100100110111011010001100

00111110010110000100001101101000
10111100111111011101110001011100
10111110110110110110000011110000
00111101111000000100010000000110

00111110010111111011110100011110
10111110111111110110110101110001
00111110101011110110011101101101
10111110110011111001000101110010

00111110101100001111100010001111
00111110111100110000101010101100
00111110100110110111001111101110
10111110101011010011001000010011

00111110100100011110011000000101
00111110010001100000100111001011
00111110100011100100101101010010
00111110111001101011001011001100

00111110001111011100110101101111
00111110011000000010101011000100
10111110110001110111100000110111
10111110000000010110111010011101

10111110100100001100001000101100
10111110010000001011110101001010
10111110111000011011100001000101
00111110000110011110011100110100

00111110111101110110010101000111
10111101000011101011010011111000
00111110010111100111110100010001
00111110100000011011100011100001

10111110001010111010111100111101
00111110010001111010111111100000
10111110010100101111100010010001
10111110100001100010010100110001

00111110110001100011111011111000
00111110111010011011000001100101
10111110100001001110110100100110
10111110011100011110101100110001

10111101101000101010010101101101
00111110101100110011011111100110
00111110110111111000110100011110
10111110010110010001000001100000

00111110100011110000011011100011
10111101101000010110010101010011
10111011010011011011110000010100
00111110100011111110011111111101

10111101101111110011000110100110
00111110010101100111110110000000
00111110110000000010100010011011
00111110111000010011101100101110

00111110100000100001011010111110
00111110110011110010001101011110
00111110111111101100110001000100
10111110101000100000101110101110

00111101100001010111110010000101
00111110110110011011001010011010
00111110111101000011011011001101
10111100111001100110011110011101

10111110110100101101011011010110
00111110110011111111011001011110
00111110101101000110101001100010
00111110101011101101000110011011

00111101011100111111010000101110
10111110010001101010010010010011
10111110101101110111001010001001
10111110111111001101110010000111

10111110010011011000110011110001
00111110100010011000111111001011
00111110000101110100011111010011
10111110110111110111111010101111

00111110000110110001001011100010
10111110001010010000100100110011
10111110011100110111000100110010
00111110101010100010111110111101

10111110001000010001010110100111
10111110100011011111010110010010
10111110010101101110010110010111
00111110001011001100100101000111

10111110111000100000000010111110
00111110111010100011101111000010
00111110011111100011000101100001
10111110110010101001000001101011

00111110110010100000010110100110
10111110110001111100110111100111
00111110011010110100000011111011
10111110100010100100101111001110

00111110101000101011000011111011
10111110100010101111101101001101
10111110101110111000001000111001
10111101011110001100000000001110

10111110111010000001000011010000
00111101110100101110011001000011
00111110110100111111100011101101
00111110000101000010011010110110

10111110100000111100010110100001
00111110110110010011011110100110
10111110100010001101010011111110
00111110101001011100001000111101

00111101110111111011000010110011
00111110111000001010011100110111
10111110111010110100001000100010
10111110000010101111101010011001

00111110001110000111000100110001
00111110011000100101110100010010
00111101110001110110000000010101
10111110100110010100001101101000

10111100001101011010011101101111
10111100110101000001010110110000
10111110010100111001011101100110
10111101110000000111010011111011

00111110011100100010101001010110
00111101101011011110101111100011
00111101001111011111010110110010
00111110001000010101111000001101

00111101111100000001100001001111
10111110101001101111110111110110
10111110101110010001100001101110
00111110101000011001010101101111

10111110011100011110111000111100
00111110011100111110011011001001
00111110110111111000111000100100
10111110001100010111100010100000

10111110111011100110011011100100
00111101101000101010010001111001
00111110001011101100010110110001
00111110011010101100011100000111

10111110111010000011111000011011
00111110111001111100010110110111
10111110110111101101010000110000
00111110100111110110100011100110

10111110100000110100101111111001
10111110111111001110110101110000
10111110010101001001100110101000
10111110100111100111010101101100

00111101101001100001111111001011
00111101111000001100000001011110
10111101010110010010101101110010
00111110110110011000011011100001

10111101111001111110101000101011
00111101011000110101000000011101
10111101110011100100111001110010
10111110001000000111001110000110

00111110100011111111010010110000
10111110111110111001000011110001
00111110100010110011011110101111
00111101011000101000100011101111

00111110101100011001111100111101
10111110011011110110011000010100
10111110101111000111001101000010
10111110101000010111010000101101

10111110111010101110010101010110
10111101110111101001000000101100
00111110100010110001001110100101
00111110010101110101111000111111

10111110000011101100010000010111
10111110101111110111011110010001
00111110111100101111001010011001
00111101011101110000000001111001

10111101101001010010111011100001
10111110010110111101001011110000
00111110000010101110001100110101
10111101111000010011000011010010

00111110010101000011000000010001
10111110000111100001100001001010
10111110110010001110100110010100
10111110101000010111011100000101

10111110001110010011100010011010
10111110010000010000010111110110
10111110001111111001110101000101
00111110111110100001010010101101

10111110000110000000000010110011
00111110001011000011111110110101
00111110010101100001111010111101
10111110001010110011110010001100

10111110011010101011011011000010
10111110100110000100000101100111
00111110111010100010000011111000
00111110101101101000011111011011

00111101010101101011101010011111
10111110001001100110010010010000
10111101110100100010111011101100
10111101011110010000101010101001

10111110110011101000111000111110
10111101001100101011001111001110
10111110111101111011000010101010
00111110100010110110001010000000

00111110101100110110010011000001
10111110101010111101010111010011
00111110100001100111100011001010
10111110000100100000100011101100

10111101000100010101100100010101
00111110111101111100011011111000
10111100011110011110111010000111
00111110011111111110110000111001

10111110000100010001000010101011
10111110111110110110100000010101
00111110101101100010010011111110
10111101000011001010011011011111

00111110010101010101100000010101
00111100111110010100110100000110
00111110101110000110101010000111
10111110110101001010011110110100

10111110111110101101100111110111
00111110111110010011100101011100
00111110111111110011101111111001
00111110010100010101011010111100

10111110001100110000000111001001
00111110111100011101100101100111
00111101000000011100111011101011
00111101111010000111001001001001

00111110101011110111001111001010
00111101100000010110000010111011
00111110011101011001110001011100
00111110000000100011001100110000

00111110110110011100011001100010
00111101100100111000100101100001
00111110001011101110001011100011
00111110110100101110001010000011

00111110111010011101100101001100
10111110000010011001111010001111
10111110101001111000011101110000
10111100110010110100110100000001

00111110110010111101100111101000
00111110100011011111010100001100
00111110000000100011100001000001
10111110001010110100111001111000

00111110110010101001001001100010
10111110101000000011111110100111
00111110110001001000000011110100
00111110100010111100110100010101

00111110100011000000110110100110
00111110101101110001000101001011
10111110101100011110001001010010
10111110010001110100001100001111

10111110111111110100110101011010
10111110100111000010010111110011
00111110101110000100011101011001
00111110110100101100010001110110

10111110111101011101011010111101
00111110100010011100010001111000
00111100011010110010010000010011
00111110110111001101011100110101

00111011101011110100000010000000
00111110101111100110111111110101
00111110100010000011010101011011
00111101010111101101100100001111

10111110110101111000100000011011
10111110001111000111110101101010
10111110110110100100100001100110
10111101110110111011111111000011

10111110001000110010011101010101
00111101010010110000110011010010
10111101110101111001110101101001
00111110110101111110001111011111

10111101011101010001111001011010
00111101101001010000110111000110
00111110101100000110010110100110
00111110011100000000000011010101

00111101111011101001011100011000
10111110111101010011110100100100
10111110111001001110011100001000
10111110110100100100011000110001

00111110110001011100100011000000
00111110100011010001100001100011
10111100000101111011001111011011
00111100101110111101101010100100

10111110100000110110110010000011
10111101000001011110110010100011
00111110111110100011011001001001
00111110000011010000110101110100

10111110100110101001000101101100
10111110100001110001111011101011
10111110011100101111100001111101
10111110111010111010000101111011

10111110110111000010011010101000
00111100110111001101100001110011
10111011100011110110110101110010
00111110101101111000100110110001

10111110100100000111100011010001
10111110100011100001000011010001
10111101110100110111110110100101
00111110011110000100101000100101

00111110100100100110111010110100
10111110100110100011101101000110
00111110001111010000100011000011
00111110111100111110000001100110

00111110111110111110000111001100
00111110000011000110000110010000
10111110100011011011011110101101
10111110100010011111101101010110

00111110100111011111001011101011
10111110100111101111011000110010
00111110001111000111011110011110
10111110001010100110100011101011

10111110110000110001110011110111
10111110110010000001010111111111
00111110100011011001110010100101
00111101110101100101111000100111

00111110101100101001001100010010
10111110010001011101110010111110
00111110111010100111011111100101
10111110100110010111001000101110

10111101110110001001011101000010
00111110101010110010110001101000
00111110010000010101001001001010
10111101001000110101000011110011

10111110110101011011000000001111
10111101010101100100110100000111
10111110110011011110111100111111
00111101011101001111010100100100

10111110100100111011001110101110
00111110111010110101110101001010
00111110011011001010010011110001
00111110001101110100111101111000

10111110101110011101010110000101
00111101011011000110100111010011
10111110110111001110000011001100
00111101111100100000011001011111

10111110001001111100011001000111
00111101101111000011101000111010
00111100110101000010111110000101
10111110111100101011010010000100

00111010011001101100010011111101
10111110000001010011110010110111
10111101110100110010010111001110
10111110100101011101100101000000

00111110111111101101010000010100
00111101111101010111001111101101
00111110001100110100011111011100
10111110110011100101111110101001

10111110101100010000010111011110
10111110110110100011011110010010
10111101001001100110001100001000
00111110010011001110111001001010

00111110110101110011100001110101
10111110101000010000011110110000
00111110000010010100001001001111
10111110001100111000001001001101

10111110110111001100110101111111
10111110101011110000101101110100
00111110111000011111100000011011
10111101000110110110001110101011

00111110100110000011111011010011
00111110111000010101000010100111
00111101110011100111010000010001
10111101111010101010011110100100

00111110100101001101000000110000
10111100101001011000011100101001
10111110100101011010111111001101
00111110101111101001110101000000

00111110101101011011111111110111
00111110101000000110011000000000
10111110100101000011000110101100
00111110100001000001011010001001

00111101101101111101111010110010
00111110110111111100101110100011
10111110010010000110100101111010
10111101111101111111011101010001

00111110100101100100100100000101
00111100011000110101000111111011
10111110111011111111100010110010
00111110100100011011101110001101

00111101100100011111101101000010
10111101101011111000010000101001
10111110100101100011111111111010
00111101111010100001010101110000

10111110100110001101010001000110
00111101100110010111110000101011
00111101001110100001111001000000
00111110000001101101010001111010

00111110001111011010111111111111
10111110110010100110100011111101
10111110101110000101100110100000
00111101111010010011101100100111

00111110100101011010011110000010
10111101111100010011001010111011
10111110000111011010011010000010
10111110110100111101100100010011

10111110010101111111100100100001
00111110110010000001101101111100
10111110111101110000010001010001
10111110001010000000000000100110

10111110110010101010010011110000
00111101110011010010001011100111
00111110111111100100011010110100
00111101000001101000001001000100

00111110100010001101111101000101
00111101000001100101101110000110
00111110101011111011010111110110
10111110000101111111100011000101

10111101011001001110001000001100
00111110000011100101011100000001
00111101100111010001001001001100
00111110111001100000110011110111

00111110011011011001101000010100
00111110011011010000110100011110
10111110111001001001101010000010
10111110000010111101000011101000
